78
-55
-78
-45
-64
-16
-23
18
-6
19
-5
13
104
15
40
-46
-9
0
4
25
-26
-64
27
78
10
-18
-41
34
-69
-87
-25
12
85
91
42
10
49
-3
29
-27
-101
-20
-32
37
8
18
-3
2
-27
-66
-3
-12
-11
29
-51
21
-43
62
87
105
40
-51
36
-46
37
-70
-44
-69
-99
48
47
-95
5
16
-57
6
-48
76
-73
-16
35
29
95
-90
24
105
52
11
84
-105
-30
-87
-122
22
-34
20
25
44
-65
-39
36
-62
32
-52
4
-1
-60
-44
-17
1
37
-52
-8
43
-71
-26
30
-79
45
40
-7
35
27
-12
-19
0
-64
36
38
12
127
-65
-6
-61
-85
29
-63
41
50
14
16
54
21
-50
-82
19
58
20
32
3
-10
-59
-28
11
20
-27
34
23
-41
37
0
82
56
16
-45
-73
-21
-68
17
-8
-57
-32
24
4
20
-14
3
4
-20
19
7
14
45
3
-1
68
-3
63
-56
57
12
-38
58
60
42
16
-88
-92
-89
47
-57
-17
-21
30
81
111
61
-74
61
-16
-61
-21
37
7
49
30
-24
27
21
9
27
72
30
61
