4e
c9
b2
d3
c0
f0
e9
12
fa
13
fb
0d
68
0f
28
d2
f7
00
04
19
e6
c0
1b
4e
0a
ee
d7
22
bb
a9
e7
0c
55
5b
2a
0a
31
fd
1d
e5
9b
ec
e0
25
08
12
fd
02
e5
be
fd
f4
f5
1d
cd
15
d5
3e
57
69
28
cd
24
d2
25
ba
d4
bb
9d
30
2f
a1
05
10
c7
06
d0
4c
b7
f0
23
1d
5f
a6
18
69
34
0b
54
97
e2
a9
86
16
de
14
19
2c
bf
d9
24
c2
20
cc
04
ff
c4
d4
ef
01
25
cc
f8
2b
b9
e6
1e
b1
2d
28
f9
23
1b
f4
ed
00
c0
24
26
0c
7f
bf
fa
c3
ab
1d
c1
29
32
0e
10
36
15
ce
ae
13
3a
14
20
03
f6
c5
e4
0b
14
e5
22
17
d7
25
00
52
38
10
d3
b7
eb
bc
11
f8
c7
e0
18
04
14
f2
03
04
ec
13
07
0e
2d
03
ff
44
fd
3f
c8
39
0c
da
3a
3c
2a
10
a8
a4
a7
2f
c7
ef
eb
1e
51
6f
3d
b6
3d
f0
c3
eb
25
07
31
1e
e8
1b
15
09
1b
48
1e
3d
